#pragma once
/*
  model.h — TFLite model for ESP32 Edge Inference
  Auto-generated by train_tflite.py
  Model size: 5652 bytes (5.5 KB)
  Features : 22
  Output   : sigmoid (0=normal, 1=attack)
*/

#ifndef MODEL_H
#define MODEL_H

const unsigned int g_model_len = 5652;

alignas(8) const unsigned char g_model_data[] = {
  0x1c, 0x00, 0x00, 0x00, 0x54, 0x46, 0x4c, 0x33, 0x14, 0x00, 0x20, 0x00, 0x1c, 0x00, 0x18, 0x00, 0x14, 0x00, 0x10, 0x00, 0x0c, 0x00, 0x00, 0x00, 0x08, 0x00, 0x04, 0x00, 0x14, 0x00, 0x00, 0x00, 0x1c, 0x00, 0x00, 0x00, 0x8c, 0x00, 0x00, 0x00, 0x14, 0x01, 0x00, 0x00, 0x8c, 0x0c, 0x00, 0x00, 0x9c, 0x0c, 0x00, 0x00, 0x90, 0x15, 0x00, 0x00, 0x03, 0x00, 0x00, 0x00, 0x01, 0x00, 0x00, 0x00, 0x04, 0x00, 0x00, 0x00, 0x0e, 0xf3, 0xff, 0xff, 0x0c, 0x00, 0x00, 0x00, 0x1c, 0x00, 0x00, 0x00, 0x3c, 0x00, 0x00, 0x00, 0x0f, 0x00, 0x00, 0x00, 0x73, 0x65, 0x72, 0x76, 0x69, 0x6e, 0x67, 0x5f, 0x64, 0x65, 0x66, 0x61, 0x75, 0x6c, 0x74, 0x00, 0x01, 0x00, 0x00, 0x00, 0x04, 0x00, 0x00, 0x00, 0x60, 0xff, 0xff, 0xff, 0x10, 0x00, 0x00, 0x00, 0x04, 0x00, 0x00, 0x00, 0x08, 0x00, 0x00, 0x00, 0x6f, 0x75, 0x74, 0x70, 0x75, 0x74, 0x5f, 0x30, 0x00, 0x00, 0x00, 0x00, 0x01, 0x00, 0x00, 0x00, 0x04, 0x00, 0x00, 0x00, 0x36, 0xf4, 0xff, 0xff, 0x04, 0x00, 0x00, 0x00, 0x0c, 0x00, 0x00, 0x00, 0x6b, 0x65, 0x72, 0x61, 0x73, 0x5f, 0x74, 0x65, 0x6e, 0x73, 0x6f, 0x72, 0x00, 0x00, 0x00, 0x00, 0x03, 0x00, 0x00, 0x00, 0x64, 0x00, 0x00, 0x00, 0x2c, 0x00, 0x00, 0x00, 0x04, 0x00, 0x00, 0x00, 0xb0, 0xff, 0xff, 0xff, 0x14, 0x00, 0x00, 0x00, 0x04, 0x00, 0x00, 0x00, 0x13, 0x00, 0x00, 0x00, 0x43, 0x4f, 0x4e, 0x56, 0x45, 0x52, 0x53, 0x49, 0x4f, 0x4e, 0x5f, 0x4d, 0x45, 0x54, 0x41, 0x44, 0x41, 0x54, 0x41, 0x00, 0xd4, 0xff, 0xff, 0xff, 0x13, 0x00, 0x00, 0x00, 0x04, 0x00, 0x00, 0x00, 0x19, 0x00, 0x00, 0x00, 0x72, 0x65, 0x64, 0x75, 0x63, 0x65, 0x64, 0x5f, 0x70, 0x72, 0x65, 0x63, 0x69, 0x73, 0x69, 0x6f, 0x6e, 0x5f, 0x73, 0x75, 0x70, 0x70, 0x6f, 0x72, 0x74, 0x00, 0x00, 0x00, 0x08, 0x00, 0x0c, 0x00, 0x08, 0x00, 0x04, 0x00, 0x08, 0x00, 0x00, 0x00, 0x12, 0x00, 0x00, 0x00, 0x04, 0x00, 0x00, 0x00, 0x13, 0x00, 0x00, 0x00, 0x6d, 0x69, 0x6e, 0x5f, 0x72, 0x75, 0x6e, 0x74, 0x69, 0x6d, 0x65, 0x5f, 0x76, 0x65, 0x72, 0x73, 0x69, 0x6f, 0x6e, 0x00, 0x15, 0x00, 0x00, 0x00, 0x74, 0x0b, 0x00, 0x00, 0x6c, 0x0b, 0x00, 0x00, 0x1c, 0x0b, 0x00, 0x00, 0x84, 0x05, 0x00, 0x00, 0x74, 0x01, 0x00, 0x00, 0x44, 0x01, 0x00, 0x00, 0x30, 0x01, 0x00, 0x00, 0x00, 0x01, 0x00, 0x00, 0xf8, 0x00, 0x00, 0x00, 0xf0, 0x00, 0x00, 0x00, 0xe8, 0x00, 0x00, 0x00, 0xe0, 0x00, 0x00, 0x00, 0xd8, 0x00, 0x00, 0x00, 0xd0, 0x00, 0x00, 0x00, 0xc8, 0x00, 0x00, 0x00, 0xc0, 0x00, 0x00, 0x00, 0xb8, 0x00, 0x00, 0x00, 0xb0, 0x00, 0x00, 0x00, 0x90, 0x00, 0x00, 0x00, 0x74, 0x00, 0x00, 0x00, 0x04, 0x00, 0x00, 0x00, 0x36, 0xf5, 0xff, 0xff, 0x04, 0x00, 0x00, 0x00, 0x60, 0x00, 0x00, 0x00, 0x0c, 0x00, 0x00, 0x00, 0x08, 0x00, 0x0e, 0x00, 0x08, 0x00, 0x04, 0x00, 0x08, 0x00, 0x00, 0x00, 0x10, 0x00, 0x00, 0x00, 0x28, 0x00, 0x00, 0x00, 0x00, 0x00, 0x06, 0x00, 0x08, 0x00, 0x04, 0x00, 0x06, 0x00, 0x00, 0x00, 0x04, 0x00, 0x00, 0x00, 0x01, 0x00, 0x00, 0x00, 0xe9, 0x03, 0x00, 0x00, 0x0c, 0x00, 0x18, 0x00, 0x14, 0x00, 0x10, 0x00, 0x0c, 0x00, 0x04, 0x00, 0x0c, 0x00, 0x00, 0x00, 0xef, 0x22, 0x22, 0x22, 0x0b, 0x53, 0x23, 0x51, 0x02, 0x00, 0x00, 0x00, 0x02, 0x00, 0x00, 0x00, 0x04, 0x00, 0x00, 0x00, 0x06, 0x00, 0x00, 0x00, 0x32, 0x2e, 0x32, 0x31, 0x2e, 0x30, 0x00, 0x00, 0xa2, 0xf5, 0xff, 0xff, 0x04, 0x00, 0x00, 0x00, 0x0b, 0x00, 0x00, 0x00, 0x66, 0x70, 0x31, 0x36, 0x61, 0x63, 0x63, 0x66, 0x70, 0x33, 0x32, 0x00, 0xba, 0xf5, 0xff, 0xff, 0x04, 0x00, 0x00, 0x00, 0x10, 0x00, 0x00, 0x00, 0x31, 0x2e, 0x31, 0x35, 0x2e, 0x30, 0x00, 0x00, 0x00, 0x00, 0x00, 0x00, 0x00, 0x00, 0x00, 0x00, 0xa8, 0xec, 0xff, 0xff, 0xac, 0xec, 0xff, 0xff, 0xb0, 0xec, 0xff, 0xff, 0xb4, 0xec, 0xff, 0xff, 0xb8, 0xec, 0xff, 0xff, 0xbc, 0xec, 0xff, 0xff, 0xc0, 0xec, 0xff, 0xff, 0xc4, 0xec, 0xff, 0xff, 0xc8, 0xec, 0xff, 0xff, 0xcc, 0xec, 0xff, 0xff, 0xfe, 0xf5, 0xff, 0xff, 0x04, 0x00, 0x00, 0x00, 0x20, 0x00, 0x00, 0x00, 0xbb, 0xaa, 0x44, 0x30, 0x77, 0xab, 0xea, 0x2e, 0xf7, 0x2f, 0x3c, 0xa8, 0x2a, 0xaa, 0x03, 0xab, 0x81, 0xab, 0x44, 0x30, 0x97, 0xaa, 0x64, 0x31, 0x51, 0xab, 0x24, 0x30, 0x0e, 0xab, 0x19, 0x2f, 0x2a, 0xf6, 0xff, 0xff, 0x04, 0x00, 0x00, 0x00, 0x02, 0x00, 0x00, 0x00, 0xed, 0xad, 0x00, 0x00, 0x3a, 0xf6, 0xff, 0xff, 0x04, 0x00, 0x00, 0x00, 0x20, 0x00, 0x00, 0x00, 0x4b, 0x37, 0xca, 0xb8, 0xdc, 0x35, 0xac, 0xb6, 0x39, 0xba, 0x29, 0x24, 0x3d, 0x9e, 0x9c, 0x34, 0x41, 0x31, 0x02, 0xb7, 0x28, 0x26, 0x70, 0xb4, 0xa8, 0x2c, 0x93, 0xb9, 0x02, 0x34, 0x43, 0xb9, 0x66, 0xf6, 0xff, 0xff, 0x04, 0x00, 0x00, 0x00, 0x00, 0x04, 0x00, 0x00, 0x36, 0xb4, 0xba, 0xb5, 0x70, 0x93, 0x41, 0xb2, 0x0b, 0x92, 0x20, 0x30, 0x5f, 0xac, 0xfb, 0x32, 0x31, 0xad, 0xef, 0xa9, 0x67, 0x33, 0x83, 0xac, 0x48, 0x31, 0xb3, 0xb3, 0x32, 0xb6, 0x84, 0x34, 0xb9, 0xaf, 0xd5, 0x33, 0xe6, 0x34, 0x3e, 0xb0, 0x8b, 0xb4, 0x65, 0xb3, 0x39, 0x31, 0xca, 0x31, 0x79, 0xb5, 0xe0, 0xb5, 0x1e, 0xb1, 0x4c, 0x29, 0xe4, 0xb4, 0xcc, 0x2a, 0x7c, 0xac, 0x41, 0x33, 0xcc, 0xb1, 0xc9, 0xa3, 0x24, 0x33, 0xe4, 0x2d, 0x38, 0xb0, 0x6c, 0x36, 0x22, 0xb2, 0x37, 0xb0, 0x6a, 0x24, 0x7e, 0xa8, 0x6a, 0x35, 0xa6, 0x31, 0x39, 0x30, 0xa8, 0x36, 0x43, 0xb3, 0x44, 0x2c, 0x6a, 0x30, 0x9a, 0x34, 0x9c, 0x36, 0xca, 0x29, 0xe0, 0x31, 0xc0, 0x31, 0xce, 0x33, 0xe6, 0x34, 0x44, 0x31, 0x5f, 0x2d, 0x8f, 0x33, 0x08, 0x2d, 0x51, 0x37, 0xc1, 0xa7, 0x21, 0x37, 0x5e, 0xa7, 0x72, 0xae, 0xbf, 0x33, 0x28, 0x33, 0x55, 0xb2, 0x14, 0x2d, 0xc5, 0xaf, 0xa1, 0x30, 0xf5, 0xaa, 0xca, 0xb5, 0x7f, 0x33, 0x20, 0xb5, 0x7f, 0xb5, 0x8e, 0x33, 0xc5, 0xb5, 0x46, 0x32, 0x7d, 0xb5, 0x91, 0xb3, 0x6e, 0x34, 0x0a, 0x34, 0xa6, 0x9f, 0x9a, 0x2f, 0x00, 0x34, 0x96, 0x20, 0xf8, 0xb4, 0x1c, 0xb3, 0xde, 0xae, 0x7f, 0x2e, 0x0f, 0x33, 0x4b, 0xb1, 0xb9, 0xb4, 0x99, 0xae, 0xba, 0xb5, 0xc4, 0x23, 0xe5, 0x2f, 0xaa, 0x33, 0x10, 0xb1, 0x11, 0xb1, 0xbb, 0x35, 0xcd, 0x2f, 0x20, 0xb3, 0xf4, 0x35, 0x84, 0x34, 0x61, 0x31, 0x8c, 0xae, 0x2f, 0x31, 0xcc, 0xb2, 0x7a, 0x36, 0x5c, 0x35, 0x71, 0x2e, 0x2d, 0xae, 0x13, 0xb2, 0x68, 0x36, 0xf3, 0x30, 0x12, 0x34, 0xb4, 0x36, 0xd7, 0x30, 0xa9, 0x36, 0x43, 0x36, 0x6b, 0x35, 0x9f, 0x35, 0x5e, 0x31, 0x5b, 0x29, 0xf5, 0xac, 0xa2, 0x32, 0x9a, 0xb1, 0x83, 0xa1, 0xf9, 0xad, 0xad, 0x33, 0x92, 0x36, 0xd5, 0xad, 0x8c, 0x35, 0xb0, 0xb3, 0x25, 0x34, 0x25, 0x34, 0x1d, 0x35, 0x16, 0x36, 0x17, 0x30, 0x9a, 0xac, 0xb2, 0xaf, 0x1f, 0x36, 0x98, 0x36, 0xb0, 0xb1, 0x5c, 0xa9, 0x29, 0xa9, 0xcd, 0x23, 0x82, 0x34, 0x73, 0x35, 0x28, 0x35, 0x97, 0x2c, 0x5f, 0xac, 0x4a, 0xa9, 0x66, 0x37, 0xe8, 0x24, 0xcf, 0x35, 0x92, 0xb1, 0x32, 0xb0, 0x29, 0xb5, 0x98, 0xb4, 0xd6, 0xb5, 0xb5, 0x2b, 0x71, 0xb5, 0x1c, 0x2e, 0x02, 0xb4, 0x26, 0x31, 0xe7, 0xb5, 0x42, 0x34, 0x08, 0xa8, 0x5c, 0xb5, 0xc4, 0xb4, 0x94, 0xb3, 0xd7, 0xad, 0x30, 0xac, 0xc7, 0xb1, 0x3c, 0xad, 0x23, 0xa0, 0xd9, 0xb2, 0x33, 0xb4, 0x58, 0xb5, 0xd4, 0xb3, 0x2c, 0x2d, 0x76, 0xb4, 0xec, 0x34, 0x7c, 0xb4, 0xae, 0x14, 0xd1, 0x2c, 0xb4, 0xb4, 0xa2, 0x32, 0x6b, 0xa8, 0x06, 0x2a, 0xfa, 0xb4, 0xc0, 0xb4, 0x88, 0x34, 0xaa, 0xb5, 0xa7, 0xb3, 0xcf, 0xb5, 0x73, 0x24, 0x07, 0x30, 0xa9, 0x30, 0xa8, 0xb5, 0x9c, 0x24, 0x80, 0x32, 0xdc, 0xb5, 0xe8, 0xab, 0xce, 0x33, 0xc5, 0x34, 0xbd, 0x30, 0xfa, 0xb5, 0x2e, 0x24, 0x61, 0x34, 0xca, 0xaf, 0xfd, 0xb0, 0x17, 0xb5, 0xa8, 0xa6, 0x37, 0x2c, 0x61, 0xa8, 0x18, 0x28, 0xda, 0x34, 0x9a, 0x32, 0x5c, 0x2e, 0x5e, 0x33, 0x22, 0xb6, 0x5a, 0x30, 0x1b, 0xb3, 0x88, 0xb4, 0x3f, 0x33, 0x2e, 0xb1, 0x3e, 0xb4, 0xce, 0x31, 0x37, 0xb4, 0xf5, 0xaa, 0x3d, 0xb1, 0x5e, 0xb5, 0x93, 0x24, 0xff, 0x30, 0x84, 0xb4, 0x04, 0xac, 0xf4, 0xb4, 0x5a, 0x34, 0x25, 0xb4, 0xc0, 0x1c, 0x02, 0xb1, 0xc0, 0x31, 0x1c, 0x24, 0x6f, 0x2a, 0x8b, 0x32, 0x51, 0x34, 0x07, 0xb1, 0x08, 0xb4, 0x95, 0xa9, 0xea, 0xb3, 0xca, 0x33, 0xfe, 0x2e, 0x56, 0xb5, 0x0f, 0xaf, 0x3c, 0x24, 0xba, 0x21, 0xbc, 0x33, 0x52, 0x34, 0xa5, 0xa8, 0x9e, 0xaa, 0xd9, 0xb0, 0xf5, 0xb2, 0x9e, 0xab, 0x71, 0xb5, 0xc9, 0x31, 0x9e, 0xb0, 0x2a, 0xb0, 0x00, 0xa7, 0x12, 0x26, 0x62, 0xb2, 0x85, 0xb2, 0x1f, 0x23, 0x94, 0x33, 0x80, 0xb5, 0x53, 0x34, 0x4a, 0xb6, 0xca, 0xb0, 0x5d, 0xb4, 0xaa, 0xb3, 0x2e, 0xb5, 0x5c, 0x2a, 0xfc, 0xb3, 0xac, 0xb4, 0x4a, 0xb2, 0x37, 0xb1, 0xc3, 0x20, 0xb9, 0x28, 0xc6, 0x37, 0x22, 0x34, 0xc5, 0x34, 0x7e, 0xb1, 0x77, 0xb1, 0x9f, 0x36, 0x34, 0x32, 0x91, 0x35, 0xda, 0x30, 0x6d, 0xa7, 0x44, 0x33, 0xda, 0x33, 0xd5, 0x36, 0x44, 0xaf, 0xc8, 0x2b, 0x47, 0xa7, 0x79, 0x33, 0xb3, 0xae, 0x4f, 0x34, 0xe7, 0x33, 0x7e, 0xa8, 0x33, 0x34, 0x1d, 0x31, 0x75, 0xaf, 0xa9, 0x37, 0x84, 0xae, 0x59, 0xb2, 0x69, 0x36, 0xea, 0x35, 0xe0, 0xb4, 0x46, 0xb5, 0xdd, 0x32, 0x3d, 0x21, 0x6b, 0x34, 0xc6, 0x32, 0xd8, 0xaa, 0x5c, 0xac, 0xa7, 0x1d, 0xe0, 0xb2, 0x63, 0xa6, 0xfe, 0xb2, 0xfb, 0x29, 0x5a, 0xb2, 0x8e, 0x31, 0x12, 0x33, 0x33, 0xb3, 0x43, 0xae, 0x04, 0x2f, 0xdc, 0xa2, 0xc4, 0xae, 0x73, 0x33, 0xd5, 0x2f, 0xe1, 0xa8, 0x49, 0xb1, 0x1a, 0x31, 0x53, 0xae, 0x94, 0xb0, 0x5e, 0xb6, 0xd9, 0x31, 0x84, 0x33, 0xb1, 0xa8, 0x65, 0x33, 0xcf, 0x2e, 0x2c, 0x37, 0x77, 0xae, 0xcd, 0x34, 0x8e, 0x35, 0x3f, 0x34, 0xa7, 0xb1, 0x3c, 0x30, 0x26, 0x33, 0xff, 0xa4, 0xb1, 0x36, 0xc6, 0xac, 0x1a, 0x37, 0x15, 0xb1, 0x8c, 0x31, 0x09, 0xa6, 0x26, 0xb1, 0x34, 0x2d, 0x12, 0x32, 0x2c, 0xb0, 0x04, 0x37, 0xcf, 0x33, 0x08, 0x38, 0xe0, 0x34, 0x2f, 0x24, 0x12, 0x31, 0x85, 0x30, 0x36, 0x34, 0x75, 0x32, 0x89, 0xaf, 0x1f, 0x36, 0x6d, 0x2e, 0x86, 0xb2, 0x50, 0xb4, 0x4d, 0x33, 0xb8, 0x34, 0x87, 0xa8, 0x89, 0xa7, 0x80, 0xb5, 0x23, 0xae, 0xcf, 0x2f, 0xf0, 0x31, 0x25, 0x32, 0x9e, 0x2d, 0x54, 0x29, 0x7d, 0xb5, 0xfd, 0x2b, 0x3a, 0x34, 0xb8, 0xad, 0xc3, 0xa7, 0xe8, 0xb4, 0x9f, 0x34, 0x39, 0x31, 0x7a, 0xb2, 0x9a, 0xa9, 0xb2, 0xaf, 0x16, 0xb3, 0x1f, 0xb6, 0x6a, 0xb4, 0xba, 0xb4, 0xff, 0xb2, 0xcc, 0xb5, 0x64, 0xac, 0x78, 0x34, 0x81, 0x34, 0x43, 0x2c, 0x38, 0xab, 0x88, 0x2e, 0x60, 0x33, 0x90, 0x2d, 0xc7, 0x36, 0x9d, 0xb0, 0x50, 0xb0, 0xed, 0xb1, 0xfe, 0x33, 0xc2, 0xb1, 0xe7, 0x28, 0x39, 0x36, 0x71, 0x34, 0xbe, 0x33, 0x2f, 0x34, 0xbd, 0x29, 0x1f, 0xb0, 0x31, 0xa4, 0xc1, 0x29, 0x08, 0x31, 0xe0, 0x36, 0xe0, 0x30, 0x99, 0x36, 0x9f, 0x36, 0x47, 0x1d, 0xe2, 0x23, 0x09, 0xb0, 0xc8, 0xad, 0x5c, 0x33, 0x73, 0xb2, 0xff, 0x2d, 0xd5, 0xb1, 0x95, 0xb2, 0xf1, 0xb3, 0x5d, 0x30, 0x9d, 0xb4, 0x13, 0xb3, 0x69, 0x24, 0x4d, 0xb3, 0x13, 0x2d, 0xaa, 0x2b, 0xf2, 0xaa, 0x8b, 0xab, 0xde, 0xb0, 0x1a, 0xb2, 0xc1, 0xb5, 0xd8, 0xb0, 0x3c, 0x2c, 0xca, 0xac, 0x35, 0xb6, 0x8a, 0x30, 0x64, 0x29, 0x46, 0xb5, 0x93, 0x34, 0x94, 0xb2, 0x28, 0xa9, 0xfa, 0xb5, 0x60, 0xb1, 0x38, 0x2f, 0xcf, 0x32, 0x20, 0x30, 0xc0, 0xae, 0x6e, 0x36, 0xc5, 0x28, 0x2c, 0x32, 0xc5, 0x36, 0x10, 0x30, 0xfd, 0xb1, 0x8d, 0x34, 0xd8, 0x2f, 0x82, 0x32, 0xb0, 0xb1, 0x54, 0x33, 0x4e, 0x33, 0xf8, 0x35, 0x63, 0x32, 0x85, 0x2d, 0xe2, 0x36, 0x85, 0xb1, 0xa4, 0xad, 0xa6, 0xb2, 0x97, 0x34, 0x89, 0x2d, 0xb6, 0x35, 0x7f, 0xaa, 0x41, 0xa9, 0x0a, 0x36, 0x3e, 0x25, 0x5f, 0xb1, 0x93, 0x36, 0xc3, 0x36, 0x16, 0x19, 0x26, 0x35, 0x72, 0xfa, 0xff, 0xff, 0x04, 0x00, 0x00, 0x00, 0x80, 0x05, 0x00, 0x00, 0x3a, 0xa8, 0xc4, 0xaa, 0xb1, 0x2b, 0x8d, 0xac, 0x4d, 0xad, 0x71, 0x31, 0x45, 0xad, 0x1b, 0x30, 0xee, 0x2a, 0xbf, 0xb3, 0x02, 0x30, 0xa8, 0xae, 0xde, 0x2b, 0x91, 0x36, 0xde, 0x33, 0x5e, 0x34, 0x24, 0x30, 0x07, 0x1a, 0x27, 0xab, 0x11, 0xb2, 0xb9, 0xb2, 0xa2, 0xb1, 0x10, 0xaa, 0xac, 0x32, 0x53, 0xb2, 0xcb, 0xb1, 0x16, 0xb5, 0xee, 0xb0, 0xcf, 0x2b, 0xf6, 0x2f, 0x8b, 0x36, 0x5d, 0x37, 0xc8, 0xb0, 0xb5, 0xb5, 0x09, 0x30, 0x9a, 0xb7, 0x42, 0xb0, 0x14, 0xb5, 0x08, 0x2c, 0x2c, 0xb4, 0x21, 0xb2, 0x14, 0x35, 0x9d, 0xad, 0xda, 0xa9, 0xe3, 0xa6, 0xfc, 0xb3, 0x36, 0x30, 0xf0, 0xb1, 0x67, 0xb4, 0xf6, 0x2e, 0x6d, 0x2d, 0x68, 0xb4, 0xe4, 0xb1, 0xdf, 0xae, 0x32, 0x31, 0x39, 0xb6, 0xa6, 0xae, 0xee, 0xb5, 0x0a, 0xae, 0x03, 0x34, 0x83, 0x35, 0x3b, 0x35, 0x4d, 0xac, 0xd4, 0xb1, 0xc7, 0x33, 0x60, 0xb0, 0x43, 0xb7, 0xe9, 0xaa, 0xbb, 0xa8, 0x6f, 0x2f, 0xb5, 0x33, 0x8c, 0x29, 0xb3, 0xa4, 0xf7, 0xb2, 0xb8, 0xb3, 0x6a, 0x2c, 0x6c, 0x31, 0xb1, 0xb5, 0xd4, 0xab, 0xfb, 0xac, 0x34, 0xb4, 0xfe, 0xa8, 0xce, 0xb5, 0x3c, 0x2c, 0xce, 0xb7, 0xee, 0xb5, 0xa4, 0x27, 0xcf, 0xb2, 0xde, 0xb2, 0xc3, 0x35, 0x94, 0x29, 0xaa, 0x35, 0xf2, 0x35, 0xfe, 0xb2, 0x3b, 0xad, 0x39, 0x32, 0x4e, 0xb1, 0x8e, 0xa9, 0xf4, 0xb5, 0xa3, 0x30, 0xf2, 0x2e, 0xfb, 0xb5, 0x40, 0xb7, 0x49, 0xb5, 0x88, 0x2b, 0x24, 0xaf, 0xcd, 0xa7, 0xaa, 0xac, 0xed, 0x2d, 0x5b, 0xac, 0x35, 0xb6, 0x2c, 0x22, 0xef, 0x30, 0xc7, 0x33, 0x24, 0x34, 0xe8, 0x35, 0x00, 0xb1, 0x38, 0x34, 0x29, 0x2f, 0x10, 0xb4, 0xf8, 0x31, 0x8a, 0xb6, 0x4a, 0x35, 0xbe, 0x1c, 0x79, 0xb4, 0x4e, 0xad, 0x98, 0xaf, 0xfb, 0x30, 0x61, 0x2c, 0x5a, 0xb5, 0x28, 0xb7, 0xc8, 0x32, 0x3d, 0x24, 0x2c, 0x2e, 0x8c, 0xb3, 0xa0, 0x34, 0x7b, 0xb4, 0x1d, 0x2b, 0xc9, 0x2c, 0xa1, 0x32, 0x14, 0x34, 0x7e, 0x30, 0xca, 0xa7, 0xcf, 0x35, 0x3a, 0x2c, 0xba, 0xb4, 0x29, 0xb3, 0xd6, 0xb3, 0xcc, 0x25, 0x1d, 0x35, 0x21, 0xb3, 0x3c, 0x30, 0x46, 0x32, 0x40, 0x34, 0xa0, 0xb0, 0xb5, 0xae, 0x86, 0x24, 0xe6, 0x31, 0x20, 0xae, 0xde, 0xac, 0xa8, 0x29, 0xf7, 0x25, 0x2b, 0x26, 0x35, 0xac, 0x2d, 0xb3, 0xa6, 0xa8, 0x14, 0xb1, 0x91, 0x33, 0x48, 0x31, 0xf3, 0xb0, 0x20, 0x31, 0x7a, 0x26, 0x21, 0xad, 0xdf, 0x2e, 0x19, 0x27, 0x13, 0xb1, 0x02, 0xaf, 0xce, 0xb5, 0x21, 0x32, 0x20, 0xb3, 0x38, 0x30, 0x95, 0x2c, 0x23, 0xb7, 0x50, 0xb6, 0x7c, 0x29, 0x5f, 0x36, 0xea, 0xb4, 0xa1, 0xa9, 0xc3, 0x34, 0xb2, 0x2d, 0xb6, 0xb5, 0xab, 0x1d, 0x47, 0x34, 0x2f, 0xb2, 0x76, 0x2e, 0xb8, 0xb4, 0x1a, 0xa8, 0x32, 0xb6, 0x69, 0xb4, 0x26, 0x26, 0x25, 0xb4, 0x16, 0xb7, 0xc2, 0x27, 0x38, 0x26, 0x50, 0xb4, 0x10, 0x34, 0xcc, 0xb4, 0x2f, 0x33, 0xb6, 0xac, 0x21, 0xb8, 0x93, 0xac, 0x46, 0xaf, 0x5e, 0xb7, 0x4b, 0xb6, 0x36, 0x31, 0x28, 0xb3, 0xad, 0xa0, 0x40, 0xaf, 0xf9, 0xb6, 0x63, 0xb5, 0x85, 0x34, 0x0f, 0x36, 0x56, 0x30, 0xd5, 0x30, 0xba, 0x32, 0xb6, 0x32, 0x5f, 0xb0, 0xab, 0xb2, 0xc6, 0xb0, 0x1e, 0xaf, 0xbd, 0x35, 0x3f, 0x27, 0x28, 0xac, 0xbd, 0xb3, 0x36, 0xb6, 0x4b, 0x2e, 0x09, 0x35, 0x38, 0xa2, 0xab, 0xb5, 0x69, 0x30, 0x9f, 0x2e, 0x6b, 0xb0, 0x63, 0x36, 0xbd, 0xac, 0x93, 0x30, 0xbe, 0xb5, 0x0a, 0xb5, 0x0d, 0x31, 0x89, 0xb2, 0xd9, 0xb0, 0x5f, 0x20, 0xdc, 0xb3, 0x67, 0x2f, 0x73, 0x34, 0x1a, 0xb1, 0xfd, 0xa9, 0x1f, 0xb4, 0xa0, 0x25, 0xff, 0xa1, 0x68, 0x22, 0x68, 0xb4, 0x0e, 0xad, 0x58, 0x28, 0x4e, 0xb7, 0x6e, 0xb4, 0x89, 0xad, 0x49, 0x31, 0x0a, 0xb2, 0xf7, 0xb3, 0xd4, 0xb2, 0x2c, 0x33, 0xfc, 0x34, 0xfe, 0xad, 0x97, 0xac, 0xa9, 0x22, 0xa7, 0xb0, 0x28, 0x2a, 0x51, 0x9f, 0x53, 0x31, 0xdc, 0xb3, 0x71, 0xb4, 0x30, 0xb1, 0xb5, 0x25, 0x07, 0x28, 0xb8, 0xb3, 0x28, 0xac, 0xb7, 0x27, 0x26, 0xb5, 0xd7, 0xae, 0xa3, 0xaa, 0xe4, 0xb5, 0x20, 0xb2, 0xf1, 0xb6, 0x84, 0xb4, 0x86, 0xab, 0x67, 0x21, 0x61, 0x30, 0x7d, 0x1a, 0x7f, 0xb0, 0x04, 0x17, 0x4c, 0x2d, 0xe4, 0x9e, 0x92, 0x34, 0x35, 0x2f, 0x1c, 0xb1, 0xb2, 0xb2, 0x3a, 0xb7, 0xdb, 0xb3, 0xbb, 0x35, 0x02, 0x30, 0xf3, 0xaa, 0x1c, 0xb3, 0xc9, 0x31, 0x09, 0x35, 0x44, 0x31, 0xd5, 0x34, 0x9a, 0x34, 0x26, 0x31, 0x6e, 0xb6, 0xa4, 0x32, 0x16, 0xb1, 0x29, 0x2e, 0xfe, 0xb4, 0xaa, 0x2f, 0xca, 0xb5, 0x97, 0x33, 0x4f, 0x2b, 0x15, 0x34, 0xe7, 0xa6, 0xdd, 0x2e, 0x8c, 0xb6, 0xb6, 0x28, 0xde, 0xb4, 0x90, 0xb5, 0xfe, 0xb4, 0xf9, 0xb0, 0x60, 0xb0, 0xc1, 0xb5, 0x08, 0x34, 0x0f, 0xb4, 0xd0, 0x31, 0x36, 0x2b, 0x4c, 0xaf, 0x19, 0xb2, 0x69, 0xb7, 0x59, 0xb4, 0xe7, 0xa8, 0x4a, 0x34, 0x19, 0x1f, 0x84, 0xb3, 0xa9, 0xae, 0x6c, 0xb2, 0x17, 0xb0, 0x97, 0x2e, 0xe4, 0xb5, 0x37, 0x2c, 0x06, 0xaf, 0xa7, 0x34, 0x66, 0x15, 0xc8, 0xac, 0xe7, 0x2e, 0xa4, 0x99, 0xc3, 0xb1, 0x8c, 0xb4, 0x10, 0x31, 0x41, 0xa3, 0xa8, 0xb5, 0x76, 0xb1, 0x60, 0x35, 0x2d, 0x29, 0x67, 0xad, 0x8f, 0x35, 0x37, 0xb0, 0x9f, 0x36, 0xf4, 0x2c, 0xab, 0xb2, 0xc0, 0x32, 0x7e, 0xae, 0x60, 0x2d, 0x24, 0x33, 0x93, 0x30, 0xc7, 0x29, 0x39, 0x34, 0xae, 0xaf, 0x0c, 0xb1, 0x11, 0x27, 0xf4, 0x2f, 0x07, 0x36, 0x8f, 0xb1, 0x2b, 0x2e, 0x4e, 0xb2, 0x81, 0x34, 0xdf, 0x30, 0x77, 0x2e, 0xe2, 0xb0, 0x88, 0x2c, 0x4f, 0x31, 0xdc, 0xaf, 0x12, 0x31, 0x6c, 0x31, 0x34, 0xae, 0xb0, 0xae, 0x25, 0x35, 0x1e, 0xaf, 0xe5, 0xab, 0x12, 0x25, 0x7c, 0xaf, 0xb6, 0xb2, 0xdf, 0xb5, 0x6b, 0x2d, 0xe1, 0xa7, 0xd4, 0x32, 0xf3, 0x2a, 0x9b, 0xb4, 0xd6, 0x34, 0x29, 0x25, 0xe8, 0xb2, 0xe6, 0x26, 0x11, 0xb5, 0x25, 0xb4, 0x36, 0x21, 0x86, 0xb1, 0xf1, 0x34, 0x51, 0xae, 0x57, 0xa7, 0x24, 0x2e, 0x78, 0x32, 0x7f, 0xb4, 0xfa, 0xa9, 0xe5, 0x30, 0xea, 0xb4, 0x25, 0x1d, 0x76, 0x87, 0x37, 0xb3, 0xe5, 0x2e, 0x2e, 0xaf, 0x3d, 0x32, 0xed, 0xae, 0x5d, 0xab, 0x57, 0xaf, 0x0d, 0xa5, 0x2d, 0xb6, 0x7c, 0xb1, 0x12, 0xa6, 0x6e, 0xac, 0xd7, 0xb1, 0x37, 0xb3, 0x87, 0x2c, 0xfa, 0xad, 0x21, 0x37, 0x4d, 0xb4, 0x74, 0x2f, 0x47, 0x2d, 0x2a, 0xb6, 0xba, 0xb0, 0xe5, 0xb5, 0x2f, 0x26, 0x26, 0x34, 0x10, 0xae, 0x9b, 0xa3, 0xcb, 0xb1, 0x54, 0xb0, 0x5d, 0x34, 0xfb, 0x33, 0x3b, 0xaf, 0x17, 0x34, 0xd2, 0xb5, 0x2e, 0x21, 0xbf, 0xb5, 0x5e, 0x2c, 0x25, 0xb2, 0x80, 0xb1, 0x5b, 0x15, 0xd8, 0x31, 0x52, 0x37, 0x84, 0xb7, 0xd1, 0x14, 0x9d, 0xb5, 0x07, 0xb2, 0xa9, 0xb1, 0x96, 0xb2, 0x10, 0x36, 0x48, 0xb4, 0x79, 0xb2, 0x14, 0x36, 0x2d, 0xb5, 0x43, 0x35, 0x75, 0x2e, 0x25, 0x35, 0x2b, 0xb7, 0xe7, 0x2b, 0x3d, 0xb2, 0x2f, 0x33, 0x4f, 0xab, 0x0f, 0xb5, 0x12, 0xb6, 0x77, 0x36, 0xc8, 0x21, 0x0f, 0xb0, 0x29, 0xb4, 0x0e, 0xad, 0x77, 0xb2, 0x42, 0xac, 0x86, 0xa5, 0x13, 0xb0, 0x9c, 0x2c, 0x32, 0x34, 0x8e, 0x30, 0x4b, 0x2c, 0xb2, 0x31, 0x4f, 0xb3, 0xcf, 0xaf, 0x66, 0xb5, 0x47, 0xb5, 0x4f, 0xaa, 0xed, 0x36, 0x96, 0x2b, 0x38, 0xac, 0xc4, 0x34, 0x3e, 0xb0, 0x7d, 0xb4, 0x47, 0xb6, 0x86, 0xad, 0x01, 0x31, 0x3a, 0xb3, 0x09, 0xb5, 0x97, 0x26, 0x85, 0x35, 0x58, 0x23, 0x14, 0x34, 0xb1, 0xb1, 0x2f, 0x35, 0xbf, 0x34, 0x71, 0xb4, 0x34, 0x32, 0x76, 0xad, 0xce, 0x27, 0x4d, 0xb5, 0x0e, 0x2f, 0x38, 0xb3, 0x07, 0xb0, 0xd7, 0xb4, 0x30, 0x23, 0xc8, 0xae, 0x37, 0xb5, 0x18, 0xb4, 0x29, 0xb7, 0x61, 0x36, 0xd2, 0xa9, 0x2b, 0xb3, 0xb9, 0x32, 0x4c, 0x2b, 0x9b, 0x29, 0x50, 0xac, 0xe9, 0xb4, 0xeb, 0xac, 0xa5, 0xb5, 0x15, 0x31, 0xd8, 0x31, 0x9c, 0xb5, 0x47, 0x32, 0x54, 0x2d, 0x00, 0xa5, 0x8e, 0x30, 0x94, 0xa9, 0xb7, 0xb0, 0xf6, 0x2f, 0x2c, 0xb5, 0xe8, 0xb3, 0x9b, 0xb1, 0x69, 0xb4, 0x1c, 0x35, 0x51, 0xb4, 0x3e, 0xa8, 0x2d, 0x32, 0xc9, 0x35, 0xe7, 0x26, 0x30, 0xb1, 0xd8, 0x2e, 0x97, 0x32, 0x10, 0xae, 0x5d, 0xb3, 0xb6, 0x30, 0xc7, 0x30, 0xf3, 0x36, 0xa2, 0xb2, 0xae, 0xb3, 0x11, 0xb8, 0x21, 0xad, 0x5a, 0xb3, 0x0f, 0xb8, 0x5b, 0x35, 0x00, 0xa5, 0xb2, 0x34, 0xc9, 0x2c, 0xa6, 0xab, 0x93, 0xa3, 0xf4, 0xb0, 0x82, 0xb1, 0x17, 0x2e, 0x3a, 0x30, 0xc4, 0xac, 0x53, 0xae, 0x52, 0x37, 0x71, 0xb6, 0xe2, 0xb7, 0x8a, 0xab, 0xec, 0xb4, 0xcf, 0x2e, 0x0e, 0xb4, 0xf1, 0x35, 0xe0, 0x32, 0x64, 0xa8, 0xa5, 0x2d, 0x2e, 0xb4, 0x99, 0x34, 0x27, 0xb4, 0xb2, 0x33, 0xc0, 0xb4, 0x7c, 0x36, 0x1c, 0x34, 0xb2, 0x1b, 0x0b, 0xb4, 0x8c, 0x30, 0x7d, 0xb0, 0x9f, 0x35, 0x3c, 0xb3, 0x61, 0xb5, 0xbd, 0x2e, 0x00, 0xad, 0xdd, 0x2e, 0x03, 0x2b, 0xf1, 0xb5, 0x6b, 0xb2, 0x31, 0xb7, 0x59, 0x2f, 0xdb, 0xaf, 0xa8, 0x30, 0x63, 0x33, 0x0d, 0x2d, 0xcd, 0x27, 0xf5, 0xb5, 0x33, 0x36, 0x39, 0x33, 0x03, 0xaf, 0x0a, 0x35, 0x15, 0x34, 0xef, 0x33, 0x2b, 0xb4, 0xe9, 0xb5, 0x96, 0x26, 0x1d, 0x2a, 0x26, 0xb6, 0x82, 0xb7, 0xde, 0xb4, 0xfb, 0x2f, 0x40, 0xab, 0x4c, 0x9f, 0x1e, 0xb7, 0x5d, 0xb2, 0xf9, 0xb3, 0x2c, 0x30, 0xba, 0x31, 0x33, 0x25, 0x41, 0xac, 0x5e, 0x33, 0x19, 0x35, 0x16, 0xae, 0x8e, 0x33, 0xe2, 0x2f, 0xa8, 0xa9, 0x41, 0xa8, 0x34, 0x31, 0x59, 0x1f, 0xa2, 0x2f, 0xb1, 0x2d, 0x8b, 0xb0, 0x0e, 0x2b, 0x22, 0x31, 0x06, 0xb0, 0x79, 0x35, 0xda, 0xb1, 0xdb, 0x32, 0xf2, 0xb6, 0x51, 0xb2, 0x03, 0xb5, 0x9a, 0x35, 0x22, 0x2f, 0x38, 0x34, 0x4d, 0xb4, 0x5c, 0x2b, 0xe5, 0xaf, 0xe4, 0xb4, 0x7b, 0x34, 0x79, 0x34, 0xe9, 0x2e, 0x43, 0xb7, 0xa4, 0x2f, 0xf1, 0xb1, 0x52, 0xb2, 0x25, 0xb3, 0xc5, 0x36, 0xa8, 0xb7, 0x6c, 0x36, 0x00, 0x00, 0x06, 0x00, 0x08, 0x00, 0x04, 0x00, 0x06, 0x00, 0x00, 0x00, 0x04, 0x00, 0x00, 0x00, 0x40, 0x00, 0x00, 0x00, 0x02, 0xae, 0x18, 0x32, 0x82, 0x2c, 0xa9, 0x32, 0xba, 0x32, 0x1d, 0x32, 0x3e, 0xa5, 0x2d, 0xac, 0x76, 0x30, 0x30, 0x32, 0x38, 0x31, 0xaf, 0x30, 0x2e, 0xa0, 0x7d, 0x31, 0x64, 0x2f, 0x48, 0x31, 0x09, 0x30, 0x5c, 0xab, 0x3f, 0xa9, 0x0e, 0xaa, 0xa2, 0x30, 0xa4, 0x31, 0xef, 0x30, 0xbf, 0x30, 0x7d, 0x32, 0x1c, 0x30, 0xac, 0x31, 0x39, 0x32, 0x39, 0x30, 0xd5, 0x30, 0xe7, 0xa6, 0xe6, 0x31, 0x24, 0xf7, 0xff, 0xff, 0x28, 0xf7, 0xff, 0xff, 0x0f, 0x00, 0x00, 0x00, 0x4d, 0x4c, 0x49, 0x52, 0x20, 0x43, 0x6f, 0x6e, 0x76, 0x65, 0x72, 0x74, 0x65, 0x64, 0x2e, 0x00, 0x01, 0x00, 0x00, 0x00, 0x14, 0x00, 0x00, 0x00, 0x00, 0x00, 0x0e, 0x00, 0x18, 0x00, 0x14, 0x00, 0x10, 0x00, 0x0c, 0x00, 0x08, 0x00, 0x04, 0x00, 0x0e, 0x00, 0x00, 0x00, 0x14, 0x00, 0x00, 0x00, 0x1c, 0x00, 0x00, 0x00, 0xf0, 0x01, 0x00, 0x00, 0xf4, 0x01, 0x00, 0x00, 0xf8, 0x01, 0x00, 0x00, 0x04, 0x00, 0x00, 0x00, 0x6d, 0x61, 0x69, 0x6e, 0x00, 0x00, 0x00, 0x00, 0x0a, 0x00, 0x00, 0x00, 0xb8, 0x01, 0x00, 0x00, 0x8c, 0x01, 0x00, 0x00, 0x6c, 0x01, 0x00, 0x00, 0x4c, 0x01, 0x00, 0x00, 0x2c, 0x01, 0x00, 0x00, 0x0c, 0x01, 0x00, 0x00, 0xc8, 0x00, 0x00, 0x00, 0x7c, 0x00, 0x00, 0x00, 0x34, 0x00, 0x00, 0x00, 0x10, 0x00, 0x00, 0x00, 0x00, 0x00, 0x0a, 0x00, 0x10, 0x00, 0x0c, 0x00, 0x08, 0x00, 0x04, 0x00, 0x0a, 0x00, 0x00, 0x00, 0x0c, 0x00, 0x00, 0x00, 0x10, 0x00, 0x00, 0x00, 0x02, 0x00, 0x00, 0x00, 0x01, 0x00, 0x00, 0x00, 0x10, 0x00, 0x00, 0x00, 0x01, 0x00, 0x00, 0x00, 0x0f, 0x00, 0x00, 0x00, 0xca, 0xff, 0xff, 0xff, 0x14, 0x00, 0x00, 0x00, 0x00, 0x00, 0x00, 0x08, 0x10, 0x00, 0x00, 0x00, 0x14, 0x00, 0x00, 0x00, 0x01, 0x00, 0x00, 0x00, 0xec, 0xf7, 0xff, 0xff, 0x01, 0x00, 0x00, 0x00, 0x0f, 0x00, 0x00, 0x00, 0x03, 0x00, 0x00, 0x00, 0x0e, 0x00, 0x00, 0x00, 0x09, 0x00, 0x00, 0x00, 0x08, 0x00, 0x00, 0x00, 0x00, 0x00, 0x0e, 0x00, 0x18, 0x00, 0x14, 0x00, 0x10, 0x00, 0x0c, 0x00, 0x0b, 0x00, 0x04, 0x00, 0x0e, 0x00, 0x00, 0x00, 0x14, 0x00, 0x00, 0x00, 0x00, 0x00, 0x00, 0x08, 0x14, 0x00, 0x00, 0x00, 0x18, 0x00, 0x00, 0x00, 0x01, 0x00, 0x00, 0x00, 0xb6, 0xff, 0xff, 0xff, 0x00, 0x00, 0x00, 0x01, 0x01, 0x00, 0x00, 0x00, 0x0e, 0x00, 0x00, 0x00, 0x03, 0x00, 0x00, 0x00, 0x0d, 0x00, 0x00, 0x00, 0x0a, 0x00, 0x00, 0x00, 0x07, 0x00, 0x00, 0x00, 0x00, 0x00, 0x0e, 0x00, 0x1a, 0x00, 0x14, 0x00, 0x10, 0x00, 0x0c, 0x00, 0x0b, 0x00, 0x04, 0x00, 0x0e, 0x00, 0x00, 0x00, 0x1c, 0x00, 0x00, 0x00, 0x00, 0x00, 0x00, 0x08, 0x1c, 0x00, 0x00, 0x00, 0x20, 0x00, 0x00, 0x00, 0x01, 0x00, 0x00, 0x00, 0x00, 0x00, 0x06, 0x00, 0x08, 0x00, 0x07, 0x00, 0x06, 0x00, 0x00, 0x00, 0x00, 0x00, 0x00, 0x01, 0x01, 0x00, 0x00, 0x00, 0x0d, 0x00, 0x00, 0x00, 0x03, 0x00, 0x00, 0x00, 0x00, 0x00, 0x00, 0x00, 0x0b, 0x00, 0x00, 0x00, 0x0c, 0x00, 0x00, 0x00, 0x72, 0xff, 0xff, 0xff, 0x08, 0x00, 0x00, 0x00, 0x0c, 0x00, 0x00, 0x00, 0x01, 0x00, 0x00, 0x00, 0x0c, 0x00, 0x00, 0x00, 0x01, 0x00, 0x00, 0x00, 0x01, 0x00, 0x00, 0x00, 0x8e, 0xff, 0xff, 0xff, 0x08, 0x00, 0x00, 0x00, 0x0c, 0x00, 0x00, 0x00, 0x01, 0x00, 0x00, 0x00, 0x0b, 0x00, 0x00, 0x00, 0x01, 0x00, 0x00, 0x00, 0x02, 0x00, 0x00, 0x00, 0xaa, 0xff, 0xff, 0xff, 0x08, 0x00, 0x00, 0x00, 0x0c, 0x00, 0x00, 0x00, 0x01, 0x00, 0x00, 0x00, 0x0a, 0x00, 0x00, 0x00, 0x01, 0x00, 0x00, 0x00, 0x03, 0x00, 0x00, 0x00, 0xc6, 0xff, 0xff, 0xff, 0x08, 0x00, 0x00, 0x00, 0x0c, 0x00, 0x00, 0x00, 0x01, 0x00, 0x00, 0x00, 0x09, 0x00, 0x00, 0x00, 0x01, 0x00, 0x00, 0x00, 0x04, 0x00, 0x00, 0x00, 0xe2, 0xff, 0xff, 0xff, 0x08, 0x00, 0x00, 0x00, 0x0c, 0x00, 0x00, 0x00, 0x01, 0x00, 0x00, 0x00, 0x08, 0x00, 0x00, 0x00, 0x01, 0x00, 0x00, 0x00, 0x05, 0x00, 0x00, 0x00, 0x00, 0x00, 0x0a, 0x00, 0x0c, 0x00, 0x00, 0x00, 0x08, 0x00, 0x04, 0x00, 0x0a, 0x00, 0x00, 0x00, 0x08, 0x00, 0x00, 0x00, 0x0c, 0x00, 0x00, 0x00, 0x01, 0x00, 0x00, 0x00, 0x07, 0x00, 0x00, 0x00, 0x01, 0x00, 0x00, 0x00, 0x06, 0x00, 0x00, 0x00, 0x01, 0x00, 0x00, 0x00, 0x10, 0x00, 0x00, 0x00, 0x01, 0x00, 0x00, 0x00, 0x00, 0x00, 0x00, 0x00, 0x11, 0x00, 0x00, 0x00, 0x70, 0x06, 0x00, 0x00, 0xf0, 0x05, 0x00, 0x00, 0x88, 0x05, 0x00, 0x00, 0x34, 0x05, 0x00, 0x00, 0xe0, 0x04, 0x00, 0x00, 0x94, 0x04, 0x00, 0x00, 0x28, 0x04, 0x00, 0x00, 0xc0, 0x03, 0x00, 0x00, 0x60, 0x03, 0x00, 0x00, 0x10, 0x03, 0x00, 0x00, 0xc0, 0x02, 0x00, 0x00, 0x70, 0x02, 0x00, 0x00, 0x0c, 0x02, 0x00, 0x00, 0x78, 0x01, 0x00, 0x00, 0xdc, 0x00, 0x00, 0x00, 0x60, 0x00, 0x00, 0x00, 0x04, 0x00, 0x00, 0x00, 0xea, 0xf9, 0xff, 0xff, 0x00, 0x00, 0x00, 0x01, 0x14, 0x00, 0x00, 0x00, 0x1c, 0x00, 0x00, 0x00, 0x1c, 0x00, 0x00, 0x00, 0x11, 0x00, 0x00, 0x00, 0x34, 0x00, 0x00, 0x00, 0x02, 0x00, 0x00, 0x00, 0xff, 0xff, 0xff, 0xff, 0x01, 0x00, 0x00, 0x00, 0xd4, 0xf9, 0xff, 0xff, 0x1b, 0x00, 0x00, 0x00, 0x53, 0x74, 0x61, 0x74, 0x65, 0x66, 0x75, 0x6c, 0x50, 0x61, 0x72, 0x74, 0x69, 0x74, 0x69, 0x6f, 0x6e, 0x65, 0x64, 0x43, 0x61, 0x6c, 0x6c, 0x5f, 0x31, 0x3a, 0x30, 0x00, 0x02, 0x00, 0x00, 0x00, 0x01, 0x00, 0x00, 0x00, 0x01, 0x00, 0x00, 0x00, 0x42, 0xfa, 0xff, 0xff, 0x00, 0x00, 0x00, 0x01, 0x14, 0x00, 0x00, 0x00, 0x1c, 0x00, 0x00, 0x00, 0x1c, 0x00, 0x00, 0x00, 0x10, 0x00, 0x00, 0x00, 0x54, 0x00, 0x00, 0x00, 0x02, 0x00, 0x00, 0x00, 0xff, 0xff, 0xff, 0xff, 0x01, 0x00, 0x00, 0x00, 0x2c, 0xfa, 0xff, 0xff, 0x38, 0x00, 0x00, 0x00, 0x73, 0x65, 0x71, 0x75, 0x65, 0x6e, 0x74, 0x69, 0x61, 0x6c, 0x5f, 0x31, 0x2f, 0x64, 0x65, 0x6e, 0x73, 0x65, 0x5f, 0x32, 0x5f, 0x31, 0x2f, 0x4d, 0x61, 0x74, 0x4d, 0x75, 0x6c, 0x3b, 0x73, 0x65, 0x71, 0x75, 0x65, 0x6e, 0x74, 0x69, 0x61, 0x6c, 0x5f, 0x31, 0x2f, 0x64, 0x65, 0x6e, 0x73, 0x65, 0x5f, 0x32, 0x5f, 0x31, 0x2f, 0x41, 0x64, 0x64, 0x00, 0x00, 0x00, 0x00, 0x02, 0x00, 0x00, 0x00, 0x01, 0x00, 0x00, 0x00, 0x01, 0x00, 0x00, 0x00, 0xba, 0xfa, 0xff, 0xff, 0x00, 0x00, 0x00, 0x01, 0x14, 0x00, 0x00, 0x00, 0x1c, 0x00, 0x00, 0x00, 0x1c, 0x00, 0x00, 0x00, 0x0f, 0x00, 0x00, 0x00, 0x74, 0x00, 0x00, 0x00, 0x02, 0x00, 0x00, 0x00, 0xff, 0xff, 0xff, 0xff, 0x10, 0x00, 0x00, 0x00, 0xa4, 0xfa, 0xff, 0xff, 0x58, 0x00, 0x00, 0x00, 0x73, 0x65, 0x71, 0x75, 0x65, 0x6e, 0x74, 0x69, 0x61, 0x6c, 0x5f, 0x31, 0x2f, 0x64, 0x65, 0x6e, 0x73, 0x65, 0x5f, 0x31, 0x5f, 0x32, 0x2f, 0x4d, 0x61, 0x74, 0x4d, 0x75, 0x6c, 0x3b, 0x73, 0x65, 0x71, 0x75, 0x65, 0x6e, 0x74, 0x69, 0x61, 0x6c, 0x5f, 0x31, 0x2f, 0x64, 0x65, 0x6e, 0x73, 0x65, 0x5f, 0x31, 0x5f, 0x32, 0x2f, 0x52, 0x65, 0x6c, 0x75, 0x3b, 0x73, 0x65, 0x71, 0x75, 0x65, 0x6e, 0x74, 0x69, 0x61, 0x6c, 0x5f, 0x31, 0x2f, 0x64, 0x65, 0x6e, 0x73, 0x65, 0x5f, 0x31, 0x5f, 0x32, 0x2f, 0x42, 0x69, 0x61, 0x73, 0x41, 0x64, 0x64, 0x00, 0x00, 0x00, 0x00, 0x02, 0x00, 0x00, 0x00, 0x01, 0x00, 0x00, 0x00, 0x10, 0x00, 0x00, 0x00, 0x52, 0xfb, 0xff, 0xff, 0x00, 0x00, 0x00, 0x01, 0x14, 0x00, 0x00, 0x00, 0x1c, 0x00, 0x00, 0x00, 0x1c, 0x00, 0x00, 0x00, 0x0e, 0x00, 0x00, 0x00, 0x6c, 0x00, 0x00, 0x00, 0x02, 0x00, 0x00, 0x00, 0xff, 0xff, 0xff, 0xff, 0x20, 0x00, 0x00, 0x00, 0x3c, 0xfb, 0xff, 0xff, 0x52, 0x00, 0x00, 0x00, 0x73, 0x65, 0x71, 0x75, 0x65, 0x6e, 0x74, 0x69, 0x61, 0x6c, 0x5f, 0x31, 0x2f, 0x64, 0x65, 0x6e, 0x73, 0x65, 0x5f, 0x31, 0x2f, 0x4d, 0x61, 0x74, 0x4d, 0x75, 0x6c, 0x3b, 0x73, 0x65, 0x71, 0x75, 0x65, 0x6e, 0x74, 0x69, 0x61, 0x6c, 0x5f, 0x31, 0x2f, 0x64, 0x65, 0x6e, 0x73, 0x65, 0x5f, 0x31, 0x2f, 0x52, 0x65, 0x6c, 0x75, 0x3b, 0x73, 0x65, 0x71, 0x75, 0x65, 0x6e, 0x74, 0x69, 0x61, 0x6c, 0x5f, 0x31, 0x2f, 0x64, 0x65, 0x6e, 0x73, 0x65, 0x5f, 0x31, 0x2f, 0x42, 0x69, 0x61, 0x73, 0x41, 0x64, 0x64, 0x00, 0x00, 0x02, 0x00, 0x00, 0x00, 0x01, 0x00, 0x00, 0x00, 0x20, 0x00, 0x00, 0x00, 0x76, 0xfe, 0xff, 0xff, 0x00, 0x00, 0x00, 0x01, 0x10, 0x00, 0x00, 0x00, 0x10, 0x00, 0x00, 0x00, 0x0d, 0x00, 0x00, 0x00, 0x44, 0x00, 0x00, 0x00, 0xbc, 0xfb, 0xff, 0xff, 0x37, 0x00, 0x00, 0x00, 0x73, 0x65, 0x71, 0x75, 0x65, 0x6e, 0x74, 0x69, 0x61, 0x6c, 0x5f, 0x31, 0x2f, 0x64, 0x65, 0x6e, 0x73, 0x65, 0x5f, 0x31, 0x2f, 0x52, 0x65, 0x6c, 0x75, 0x3b, 0x73, 0x65, 0x71, 0x75, 0x65, 0x6e, 0x74, 0x69, 0x61, 0x6c, 0x5f, 0x31, 0x2f, 0x64, 0x65, 0x6e, 0x73, 0x65, 0x5f, 0x31, 0x2f, 0x42, 0x69, 0x61, 0x73, 0x41, 0x64, 0x64, 0x31, 0x00, 0x01, 0x00, 0x00, 0x00, 0x20, 0x00, 0x00, 0x00, 0xd6, 0xfe, 0xff, 0xff, 0x00, 0x00, 0x00, 0x01, 0x10, 0x00, 0x00, 0x00, 0x10, 0x00, 0x00, 0x00, 0x0c, 0x00, 0x00, 0x00, 0x2c, 0x00, 0x00, 0x00, 0x1c, 0xfc, 0xff, 0xff, 0x1c, 0x00, 0x00, 0x00, 0x73, 0x65, 0x71, 0x75, 0x65, 0x6e, 0x74, 0x69, 0x61, 0x6c, 0x5f, 0x31, 0x2f, 0x64, 0x65, 0x6e, 0x73, 0x65, 0x5f, 0x31, 0x2f, 0x4d, 0x61, 0x74, 0x4d, 0x75, 0x6c, 0x31, 0x00, 0x00, 0x00, 0x00, 0x02, 0x00, 0x00, 0x00, 0x20, 0x00, 0x00, 0x00, 0x16, 0x00, 0x00, 0x00, 0x22, 0xff, 0xff, 0xff, 0x00, 0x00, 0x00, 0x01, 0x10, 0x00, 0x00, 0x00, 0x10, 0x00, 0x00, 0x00, 0x0b, 0x00, 0x00, 0x00, 0x2c, 0x00, 0x00, 0x00, 0x68, 0xfc, 0xff, 0xff, 0x1e, 0x00, 0x00, 0x00, 0x73, 0x65, 0x71, 0x75, 0x65, 0x6e, 0x74, 0x69, 0x61, 0x6c, 0x5f, 0x31, 0x2f, 0x64, 0x65, 0x6e, 0x73, 0x65, 0x5f, 0x31, 0x5f, 0x32, 0x2f, 0x4d, 0x61, 0x74, 0x4d, 0x75, 0x6c, 0x31, 0x00, 0x00, 0x02, 0x00, 0x00, 0x00, 0x10, 0x00, 0x00, 0x00, 0x20, 0x00, 0x00, 0x00, 0x6e, 0xff, 0xff, 0xff, 0x00, 0x00, 0x00, 0x01, 0x10, 0x00, 0x00, 0x00, 0x10, 0x00, 0x00, 0x00, 0x0a, 0x00, 0x00, 0x00, 0x2c, 0x00, 0x00, 0x00, 0xb4, 0xfc, 0xff, 0xff, 0x1e, 0x00, 0x00, 0x00, 0x73, 0x65, 0x71, 0x75, 0x65, 0x6e, 0x74, 0x69, 0x61, 0x6c, 0x5f, 0x31, 0x2f, 0x64, 0x65, 0x6e, 0x73, 0x65, 0x5f, 0x32, 0x5f, 0x31, 0x2f, 0x4d, 0x61, 0x74, 0x4d, 0x75, 0x6c, 0x31, 0x00, 0x00, 0x02, 0x00, 0x00, 0x00, 0x01, 0x00, 0x00, 0x00, 0x10, 0x00, 0x00, 0x00, 0xba, 0xff, 0xff, 0xff, 0x00, 0x00, 0x00, 0x01, 0x10, 0x00, 0x00, 0x00, 0x10, 0x00, 0x00, 0x00, 0x09, 0x00, 0x00, 0x00, 0x28, 0x00, 0x00, 0x00, 0x00, 0xfd, 0xff, 0xff, 0x1b, 0x00, 0x00, 0x00, 0x73, 0x65, 0x71, 0x75, 0x65, 0x6e, 0x74, 0x69, 0x61, 0x6c, 0x5f, 0x31, 0x2f, 0x64, 0x65, 0x6e, 0x73, 0x65, 0x5f, 0x32, 0x5f, 0x31, 0x2f, 0x41, 0x64, 0x64, 0x31, 0x00, 0x01, 0x00, 0x00, 0x00, 0x01, 0x00, 0x00, 0x00, 0x00, 0x00, 0x16, 0x00, 0x18, 0x00, 0x14, 0x00, 0x00, 0x00, 0x10, 0x00, 0x0c, 0x00, 0x08, 0x00, 0x00, 0x00, 0x00, 0x00, 0x00, 0x00, 0x07, 0x00, 0x16, 0x00, 0x00, 0x00, 0x00, 0x00, 0x00, 0x01, 0x10, 0x00, 0x00, 0x00, 0x10, 0x00, 0x00, 0x00, 0x08, 0x00, 0x00, 0x00, 0x48, 0x00, 0x00, 0x00, 0x5c, 0xfd, 0xff, 0xff, 0x3b, 0x00, 0x00, 0x00, 0x73, 0x65, 0x71, 0x75, 0x65, 0x6e, 0x74, 0x69, 0x61, 0x6c, 0x5f, 0x31, 0x2f, 0x64, 0x65, 0x6e, 0x73, 0x65, 0x5f, 0x31, 0x5f, 0x32, 0x2f, 0x52, 0x65, 0x6c, 0x75, 0x3b, 0x73, 0x65, 0x71, 0x75, 0x65, 0x6e, 0x74, 0x69, 0x61, 0x6c, 0x5f, 0x31, 0x2f, 0x64, 0x65, 0x6e, 0x73, 0x65, 0x5f, 0x31, 0x5f, 0x32, 0x2f, 0x42, 0x69, 0x61, 0x73, 0x41, 0x64, 0x64, 0x31, 0x00, 0x01, 0x00, 0x00, 0x00, 0x10, 0x00, 0x00, 0x00, 0x62, 0xfe, 0xff, 0xff, 0x00, 0x00, 0x00, 0x01, 0x14, 0x00, 0x00, 0x00, 0x14, 0x00, 0x00, 0x00, 0x07, 0x00, 0x00, 0x00, 0x00, 0x00, 0x00, 0x01, 0x48, 0x00, 0x00, 0x00, 0xc4, 0xfd, 0xff, 0xff, 0x3a, 0x00, 0x00, 0x00, 0x73, 0x65, 0x71, 0x75, 0x65, 0x6e, 0x74, 0x69, 0x61, 0x6c, 0x5f, 0x31, 0x2f, 0x64, 0x65, 0x6e, 0x73, 0x65, 0x5f, 0x31, 0x5f, 0x32, 0x2f, 0x52, 0x65, 0x6c, 0x75, 0x3b, 0x73, 0x65, 0x71, 0x75, 0x65, 0x6e, 0x74, 0x69, 0x61, 0x6c, 0x5f, 0x31, 0x2f, 0x64, 0x65, 0x6e, 0x73, 0x65, 0x5f, 0x31, 0x5f, 0x32, 0x2f, 0x42, 0x69, 0x61, 0x73, 0x41, 0x64, 0x64, 0x00, 0x00, 0x01, 0x00, 0x00, 0x00, 0x10, 0x00, 0x00, 0x00, 0xca, 0xfe, 0xff, 0xff, 0x00, 0x00, 0x00, 0x01, 0x14, 0x00, 0x00, 0x00, 0x14, 0x00, 0x00, 0x00, 0x06, 0x00, 0x00, 0x00, 0x00, 0x00, 0x00, 0x01, 0x28, 0x00, 0x00, 0x00, 0x2c, 0xfe, 0xff, 0xff, 0x1a, 0x00, 0x00, 0x00, 0x73, 0x65, 0x71, 0x75, 0x65, 0x6e, 0x74, 0x69, 0x61, 0x6c, 0x5f, 0x31, 0x2f, 0x64, 0x65, 0x6e, 0x73, 0x65, 0x5f, 0x32, 0x5f, 0x31, 0x2f, 0x41, 0x64, 0x64, 0x00, 0x00, 0x01, 0x00, 0x00, 0x00, 0x01, 0x00, 0x00, 0x00, 0x12, 0xff, 0xff, 0xff, 0x00, 0x00, 0x00, 0x01, 0x14, 0x00, 0x00, 0x00, 0x14, 0x00, 0x00, 0x00, 0x05, 0x00, 0x00, 0x00, 0x00, 0x00, 0x00, 0x01, 0x2c, 0x00, 0x00, 0x00, 0x74, 0xfe, 0xff, 0xff, 0x1d, 0x00, 0x00, 0x00, 0x73, 0x65, 0x71, 0x75, 0x65, 0x6e, 0x74, 0x69, 0x61, 0x6c, 0x5f, 0x31, 0x2f, 0x64, 0x65, 0x6e, 0x73, 0x65, 0x5f, 0x32, 0x5f, 0x31, 0x2f, 0x4d, 0x61, 0x74, 0x4d, 0x75, 0x6c, 0x00, 0x00, 0x00, 0x02, 0x00, 0x00, 0x00, 0x01, 0x00, 0x00, 0x00, 0x10, 0x00, 0x00, 0x00, 0x62, 0xff, 0xff, 0xff, 0x00, 0x00, 0x00, 0x01, 0x14, 0x00, 0x00, 0x00, 0x14, 0x00, 0x00, 0x00, 0x04, 0x00, 0x00, 0x00, 0x00, 0x00, 0x00, 0x01, 0x2c, 0x00, 0x00, 0x00, 0xc4, 0xfe, 0xff, 0xff, 0x1d, 0x00, 0x00, 0x00, 0x73, 0x65, 0x71, 0x75, 0x65, 0x6e, 0x74, 0x69, 0x61, 0x6c, 0x5f, 0x31, 0x2f, 0x64, 0x65, 0x6e, 0x73, 0x65, 0x5f, 0x31, 0x5f, 0x32, 0x2f, 0x4d, 0x61, 0x74, 0x4d, 0x75, 0x6c, 0x00, 0x00, 0x00, 0x02, 0x00, 0x00, 0x00, 0x10, 0x00, 0x00, 0x00, 0x20, 0x00, 0x00, 0x00, 0xb2, 0xff, 0xff, 0xff, 0x00, 0x00, 0x00, 0x01, 0x14, 0x00, 0x00, 0x00, 0x14, 0x00, 0x00, 0x00, 0x03, 0x00, 0x00, 0x00, 0x00, 0x00, 0x00, 0x01, 0x28, 0x00, 0x00, 0x00, 0x14, 0xff, 0xff, 0xff, 0x1b, 0x00, 0x00, 0x00, 0x73, 0x65, 0x71, 0x75, 0x65, 0x6e, 0x74, 0x69, 0x61, 0x6c, 0x5f, 0x31, 0x2f, 0x64, 0x65, 0x6e, 0x73, 0x65, 0x5f, 0x31, 0x2f, 0x4d, 0x61, 0x74, 0x4d, 0x75, 0x6c, 0x00, 0x02, 0x00, 0x00, 0x00, 0x20, 0x00, 0x00, 0x00, 0x16, 0x00, 0x00, 0x00, 0x00, 0x00, 0x16, 0x00, 0x1c, 0x00, 0x18, 0x00, 0x17, 0x00, 0x10, 0x00, 0x0c, 0x00, 0x08, 0x00, 0x00, 0x00, 0x00, 0x00, 0x00, 0x00, 0x07, 0x00, 0x16, 0x00, 0x00, 0x00, 0x00, 0x00, 0x00, 0x01, 0x14, 0x00, 0x00, 0x00, 0x14, 0x00, 0x00, 0x00, 0x02, 0x00, 0x00, 0x00, 0x00, 0x00, 0x00, 0x01, 0x44, 0x00, 0x00, 0x00, 0x78, 0xff, 0xff, 0xff, 0x36, 0x00, 0x00, 0x00, 0x73, 0x65, 0x71, 0x75, 0x65, 0x6e, 0x74, 0x69, 0x61, 0x6c, 0x5f, 0x31, 0x2f, 0x64, 0x65, 0x6e, 0x73, 0x65, 0x5f, 0x31, 0x2f, 0x52, 0x65, 0x6c, 0x75, 0x3b, 0x73, 0x65, 0x71, 0x75, 0x65, 0x6e, 0x74, 0x69, 0x61, 0x6c, 0x5f, 0x31, 0x2f, 0x64, 0x65, 0x6e, 0x73, 0x65, 0x5f, 0x31, 0x2f, 0x42, 0x69, 0x61, 0x73, 0x41, 0x64, 0x64, 0x00, 0x00, 0x01, 0x00, 0x00, 0x00, 0x20, 0x00, 0x00, 0x00, 0x00, 0x00, 0x16, 0x00, 0x1c, 0x00, 0x18, 0x00, 0x00, 0x00, 0x14, 0x00, 0x10, 0x00, 0x0c, 0x00, 0x00, 0x00, 0x00, 0x00, 0x08, 0x00, 0x07, 0x00, 0x16, 0x00, 0x00, 0x00, 0x00, 0x00, 0x00, 0x01, 0x14, 0x00, 0x00, 0x00, 0x20, 0x00, 0x00, 0x00, 0x20, 0x00, 0x00, 0x00, 0x01, 0x00, 0x00, 0x00, 0x3c, 0x00, 0x00, 0x00, 0x02, 0x00, 0x00, 0x00, 0xff, 0xff, 0xff, 0xff, 0x16, 0x00, 0x00, 0x00, 0x04, 0x00, 0x04, 0x00, 0x04, 0x00, 0x00, 0x00, 0x1e, 0x00, 0x00, 0x00, 0x73, 0x65, 0x72, 0x76, 0x69, 0x6e, 0x67, 0x5f, 0x64, 0x65, 0x66, 0x61, 0x75, 0x6c, 0x74, 0x5f, 0x6b, 0x65, 0x72, 0x61, 0x73, 0x5f, 0x74, 0x65, 0x6e, 0x73, 0x6f, 0x72, 0x3a, 0x30, 0x00, 0x00, 0x02, 0x00, 0x00, 0x00, 0x01, 0x00, 0x00, 0x00, 0x16, 0x00, 0x00, 0x00, 0x03, 0x00, 0x00, 0x00, 0x3c, 0x00, 0x00, 0x00, 0x20, 0x00, 0x00, 0x00, 0x04, 0x00, 0x00, 0x00, 0xf4, 0xff, 0xff, 0xff, 0x0e, 0x00, 0x00, 0x00, 0x00, 0x00, 0x00, 0x0e, 0x0c, 0x00, 0x0c, 0x00, 0x0b, 0x00, 0x00, 0x00, 0x00, 0x00, 0x04, 0x00, 0x0c, 0x00, 0x00, 0x00, 0x09, 0x00, 0x00, 0x00, 0x00, 0x00, 0x00, 0x09, 0x0c, 0x00, 0x10, 0x00, 0x0f, 0x00, 0x00, 0x00, 0x08, 0x00, 0x04, 0x00, 0x0c, 0x00, 0x00, 0x00, 0x06, 0x00, 0x00, 0x00, 0x03, 0x00, 0x00, 0x00, 0x00, 0x00, 0x00, 0x06
};

#endif // MODEL_H
